{
    "special_tokens": {
        "<|endoftext|>": 83
    },
    "vocab": {
        "0": "\n",
        "1": " ",
        "2": "!",
        "3": "\"",
        "4": "'",
        "5": "(",
        "6": ")",
        "7": ",",
        "8": "-",
        "9": ".",
        "10": "/",
        "11": "0",
        "12": "1",
        "13": "2",
        "14": "3",
        "15": "4",
        "16": "5",
        "17": "6",
        "18": "7",
        "19": "8",
        "20": "9",
        "21": ":",
        "22": ";",
        "23": "?",
        "24": "A",
        "25": "B",
        "26": "C",
        "27": "D",
        "28": "E",
        "29": "F",
        "30": "G",
        "31": "H",
        "32": "I",
        "33": "J",
        "34": "K",
        "35": "L",
        "36": "M",
        "37": "N",
        "38": "O",
        "39": "P",
        "40": "Q",
        "41": "R",
        "42": "S",
        "43": "T",
        "44": "U",
        "45": "V",
        "46": "W",
        "47": "X",
        "48": "Y",
        "49": "Z",
        "50": "`",
        "51": "a",
        "52": "b",
        "53": "c",
        "54": "d",
        "55": "e",
        "56": "f",
        "57": "g",
        "58": "h",
        "59": "i",
        "60": "j",
        "61": "k",
        "62": "l",
        "63": "m",
        "64": "n",
        "65": "o",
        "66": "p",
        "67": "q",
        "68": "r",
        "69": "s",
        "70": "t",
        "71": "u",
        "72": "v",
        "73": "w",
        "74": "x",
        "75": "y",
        "76": "z",
        "77": "–",
        "78": "—",
        "79": "‘",
        "80": "’",
        "81": "“",
        "82": "”",
        "83": "<|endoftext|>",
        "84": "e ",
        "85": "d ",
        "86": "th",
        "87": " a",
        "88": ". ",
        "89": "t ",
        "90": "y ",
        "91": "nd ",
        "92": "s ",
        "93": "to",
        "94": "er",
        "95": "ed ",
        "96": "the ",
        "97": ", ",
        "98": "wa",
        "99": "in",
        "100": "he ",
        "101": "to ",
        "102": " and ",
        "103": "ou",
        "104": "en",
        "105": ". T",
        "106": "ha",
        "107": " a ",
        "108": "om",
        "109": "sa",
        "110": "ar",
        "111": " the ",
        "112": "he",
        "113": "on",
        "114": "im",
        "115": ".\n",
        "116": "ll",
        "117": "g ",
        "118": "an",
        "119": "was ",
        "120": "or",
        "121": "ay",
        "122": "er ",
        "123": "it",
        "124": "id",
        "125": "re",
        "126": "pl",
        "127": "is ",
        "128": "ir",
        "129": "ed to ",
        "130": "the",
        "131": "il",
        "132": "am",
        "133": "wi",
        "134": "st",
        "135": "ri",
        "136": "lo",
        "137": "and ",
        "138": "a ",
        "139": "hey ",
        "140": ". H",
        "141": ". S",
        "142": "o ",
        "143": ". He ",
        "144": "no",
        "145": ". They ",
        "146": " h",
        "147": "at ",
        "148": "ere ",
        "149": "with",
        "150": "un",
        "151": "ing ",
        "152": "On",
        "153": "ck",
        "154": "pp",
        "155": "ver",
        "156": ". The ",
        "157": "li",
        "158": "le",
        "159": "ll ",
        "160": "\" ",
        "161": "bi",
        "162": ". She ",
        "163": ", \"",
        "164": "be",
        "165": "ut ",
        "166": "day",
        "167": "it ",
        "168": "you",
        "169": "w ",
        "170": "ok",
        "171": "om ",
        "172": "said",
        "173": "ma",
        "174": "ing",
        "175": "se",
        "176": "ld ",
        "177": "bo",
        "178": "le ",
        "179": "happ",
        "180": "do",
        "181": "end",
        "182": "ba",
        "183": "of",
        "184": "ed",
        "185": "fri",
        "186": "up",
        "187": "gh",
        "188": "ch",
        "189": "im ",
        "190": "an ",
        "191": "ay ",
        "192": "sh",
        "193": "ne",
        "194": "for",
        "195": "wan",
        "196": "very ",
        "197": "had ",
        "198": "was",
        "199": "l ",
        "200": "en ",
        "201": "ce ",
        "202": "friend",
        "203": "big ",
        "204": "said, \"",
        "205": "itt",
        "206": "Lil",
        "207": "they ",
        "208": "ve ",
        "209": "e, ",
        "210": "ro",
        "211": ".\n\n",
        "212": "ted to ",
        "213": "play",
        "214": ". I",
        "215": "not ",
        "216": "One ",
        "217": "ke ",
        "218": "ge",
        "219": "was a ",
        "220": "es",
        "221": "tim",
        "222": "at",
        "223": "'s ",
        "224": "litt",
        "225": "that ",
        "226": "car",
        "227": "little ",
        "228": "his ",
        "229": "ould ",
        "230": "id ",
        "231": "One day",
        "232": "in the ",
        "233": "nam",
        "234": "she ",
        "235": "named ",
        "236": "y and ",
        "237": "were ",
        "238": "to the ",
        "239": "ther",
        "240": "\"\n",
        "241": "ra",
        "242": "her ",
        "243": "so ",
        "244": "there ",
        "245": "ed and ",
        "246": "go",
        "247": "The ",
        "248": "play ",
        "249": "fe",
        "250": "wh",
        "251": "ent ",
        "252": "bir",
        "253": "on a ",
        "254": "you ",
        "255": "saw",
        "256": ", and ",
        "257": "re ",
        "258": "hel",
        "259": "wanted to ",
        "260": "se ",
        "261": "but ",
        "262": "ed the ",
        "263": "Once ",
        "264": "y a",
        "265": "help",
        "266": "with ",
        "267": "! ",
        "268": "I ",
        "269": "went ",
        "270": "look",
        "271": "fi",
        "272": "ound ",
        "273": " his ",
        "274": "upon a ",
        "275": "Once upon a ",
        "276": "Once upon a tim",
        "277": "ta",
        "278": "sk",
        "279": "la",
        "280": "there was a ",
        "281": ". It ",
        "282": "ca",
        "283": "fun",
        "284": "Tim ",
        "285": "s and ",
        "286": "som",
        "287": "ur",
        "288": "be ",
        "289": "Tim",
        "290": "ea",
        "291": "Lily ",
        "292": "Once upon a time, ",
        "293": ", but ",
        "294": "One day, ",
        "295": "po",
        "296": "of ",
        "297": "tre",
        "298": "toge",
        "299": "ck ",
        "300": "k ",
        "301": "st ",
        "302": "!\" ",
        "303": "par",
        "304": "ame ",
        "305": "ir ",
        "306": "et",
        "307": "m ",
        "308": " her ",
        "309": ", a ",
        "310": "my ",
        "311": "bird ",
        "312": "sm",
        "313": "was very ",
        "314": "ec",
        "315": "co",
        "316": "came ",
        "317": "fu",
        "318": "wn",
        "319": "e and ",
        "320": "gir",
        "321": ".\n\nOnce upon a time, ",
        "322": "mom",
        "323": "their ",
        "324": ". B",
        "325": "saw a ",
        "326": "ga",
        "327": "mom ",
        "328": "ter",
        "329": "Ma",
        "330": "t the ",
        "331": "new ",
        "332": "'t ",
        "333": "lov",
        "334": "Max",
        "335": "did ",
        "336": "on the ",
        "337": "ic",
        "338": "y, ",
        "339": "could ",
        "340": "is",
        "341": "ch ",
        "342": ".\"\n",
        "343": "friends",
        "344": "have ",
        "345": "um",
        "346": "played ",
        "347": "for ",
        "348": "together",
        "349": ".\" ",
        "350": "t to ",
        "351": "had a ",
        "352": ".\n\"",
        "353": "star",
        "354": "fa",
        "355": "es ",
        "356": "ough",
        "357": "ue ",
        "358": ". A",
        "359": "smil",
        "360": ". Tim ",
        "361": "can ",
        "362": "girl ",
        "363": "happy",
        "364": "ex",
        "365": "mor",
        "366": "sid",
        "367": "bu",
        "368": "lik",
        "369": "found ",
        "370": "way",
        "371": "looked ",
        "372": "Tom",
        "373": "al",
        "374": "ho",
        "375": "did not ",
        "376": "in ",
        "377": ".\n\nOnce upon a time, there was a ",
        "378": "said ",
        "379": "sto",
        "380": "ow",
        "381": "some",
        "382": ". \"",
        "383": "happy ",
        "384": "fr",
        "385": "on ",
        "386": "fel",
        "387": "boy ",
        "388": "Tom ",
        "389": "rea",
        "390": "nd",
        "391": "like ",
        "392": "thing ",
        "393": "ther ",
        "394": "You",
        "395": "out",
        "396": "hat ",
        "397": "would ",
        "398": " an",
        "399": "p ",
        "400": "od ",
        "401": "dog ",
        "402": "wor",
        "403": "toy",
        "404": "day ",
        "405": "sp",
        "406": "gr",
        "407": "ke",
        "408": "with the ",
        "409": "ball",
        "410": "el",
        "411": "make ",
        "412": "cat ",
        "413": "r ",
        "414": "Sam",
        "415": "felt ",
        "416": "dd",
        "417": "one ",
        "418": "lk",
        "419": "thing",
        "420": "of the ",
        "421": "scar",
        "422": "sma",
        "423": "sha",
        "424": "tt",
        "425": "de ",
        "426": "?\" ",
        "427": "Wh",
        "428": "go ",
        "429": "o, ",
        "430": "igh",
        "431": "see ",
        "432": "me",
        "433": "mu",
        "434": "man",
        "435": "ved ",
        "436": "loved to ",
        "437": "big",
        "438": "ent",
        "439": "though",
        "440": "One day, a ",
        "441": "started to ",
        "442": ". One day, ",
        "443": "was so ",
        "444": "park",
        "445": ". But ",
        "446": "pa",
        "447": "tr",
        "448": ".\nThe ",
        "449": "ick",
        "450": "in a ",
        "451": ".\n\n\n",
        "452": "say",
        "453": "ug",
        "454": "Mi",
        "455": "Max ",
        "456": "made ",
        "457": "tri",
        "458": "ugh",
        "459": "com",
        "460": "out ",
        "461": "arn",
        "462": "liked to ",
        "463": ", the ",
        "464": "them",
        "465": "too",
        "466": "little girl ",
        "467": "something ",
        "468": "want to ",
        "469": " are ",
        "470": "They ",
        "471": "uc",
        "472": "down",
        "473": "pu",
        "474": "with his ",
        "475": "find ",
        "476": "ell",
        "477": "box",
        "478": "gre",
        "479": "cat",
        "480": "it was ",
        "481": "op",
        "482": "friends ",
        "483": "learn",
        "484": ".\nOne day, ",
        "485": "sad",
        "486": "help ",
        "487": "ly ",
        "488": "ob",
        "489": "kno",
        "490": "toy ",
        "491": "fo",
        "492": "fun ",
        "493": "sun",
        "494": "put ",
        "495": "saw ",
        "496": "qu",
        "497": "gain",
        "498": "f ",
        "499": "hey a",
        "500": "ful ",
        "501": "use ",
        "502": "found a ",
        "503": ".\nA",
        "504": "took",
        "505": "good ",
        "506": "pre",
        "507": "will ",
        "508": "ever",
        "509": "ong",
        "510": "ver ",
        "511": "Luc",
        "512": "lived ",
        "513": "walk",
        "514": ". \n",
        "515": "low",
        "516": "ce",
        "517": "ted ",
        "518": "her",
        "519": "boy named ",
        "520": "other",
        "521": "n't ",
        "522": " and the ",
        "523": "some ",
        "524": "bird",
        "525": "pe",
        "526": ",\" ",
        "527": "tree",
        "528": "ts ",
        "529": "red ",
        "530": "back ",
        "531": "ld",
        "532": "all",
        "533": ". They a",
        "534": "en, ",
        "535": "th ",
        "536": "hom",
        "537": "od",
        "538": "Mom",
        "539": "pr",
        "540": "happy and ",
        "541": "laugh",
        "542": "gi",
        "543": "ran",
        "544": "da",
        "545": "Lily",
        "546": "when ",
        "547": "dec",
        "548": ".\n\nOne day, a ",
        "549": "your ",
        "550": "them ",
        "551": "playing ",
        "552": "sad ",
        "553": "we ",
        "554": "You ",
        "555": "ar ",
        "556": "ti",
        "557": "!\"\n",
        "558": "Ben ",
        "559": "han",
        "560": "Su",
        "561": ". I ",
        "562": "says",
        "563": "him",
        "564": "many ",
        "565": "what ",
        "566": "ill",
        "567": "small ",
        "568": "sw",
        "569": "der",
        "570": "ball ",
        "571": "na",
        "572": "too ",
        "573": "clo",
        "574": "decid",
        "575": "wat",
        "576": ". They were ",
        "577": "ask",
        "578": "ice ",
        "579": "ss",
        "580": "Spo",
        "581": "play with ",
        "582": " all ",
        "583": "ny ",
        "584": "es, ",
        "585": "Sue ",
        "586": "smiled and ",
        "587": "ed her ",
        "588": "t's ",
        "589": "back",
        "590": "who ",
        "591": "al ",
        "592": "cit",
        "593": "went to the ",
        "594": "dog",
        "595": "ump",
        "596": "ow ",
        "597": " a big ",
        "598": "cause ",
        "599": "ound",
        "600": "mo",
        "601": "di",
        "602": "became ",
        "603": "We ",
        "604": "one",
        "605": "thought ",
        "606": "on't ",
        "607": " ar",
        "608": "excit",
        "609": "because ",
        "610": "hou",
        "611": "ff",
        "612": "ed that ",
        "613": "ry ",
        "614": "ry",
        "615": "little girl named ",
        "616": "cl",
        "617": "got ",
        "618": "ways ",
        "619": "outsid",
        "620": "with her ",
        "621": "br",
        "622": "saw a big ",
        "623": "sur",
        "624": "man ",
        "625": "do ",
        "626": "pri",
        "627": "run",
        "628": "ran ",
        "629": "But ",
        "630": "ed his ",
        "631": "end ",
        "632": "decided to ",
        "633": " and said, \"",
        "634": "knew ",
        "635": "ble",
        "636": "sor",
        "637": "from",
        "638": "hear",
        "639": "sh ",
        "640": "best ",
        "641": "tried to ",
        "642": "e the ",
        "643": " al",
        "644": "big, ",
        "645": "Let",
        "646": "lu",
        "647": "cou",
        "648": "lea",
        "649": "both ",
        "650": "oud ",
        "651": "room",
        "652": "Lily and ",
        "653": "on, ",
        "654": "ard",
        "655": "more ",
        "656": "care",
        "657": "Mia ",
        "658": " ask",
        "659": "cre",
        "660": "flow",
        "661": "Sam ",
        "662": "each ",
        "663": "surpri",
        "664": "day, ",
        "665": "ju",
        "666": "insid",
        "667": "than",
        "668": "t and ",
        "669": "told ",
        "670": "Ben",
        "671": " ab",
        "672": "for a ",
        "673": "gave ",
        "674": "Let's ",
        "675": "de",
        "676": "open",
        "677": ". Tom ",
        "678": "ind ",
        "679": "can",
        "680": "pla",
        "681": ". F",
        "682": "saw the ",
        "683": " away",
        "684": "cle",
        "685": "e to ",
        "686": "hug",
        "687": "prett",
        "688": "happen",
        "689": "so",
        "690": "ly",
        "691": "did",
        "692": "up ",
        "693": "ve",
        "694": ". Lily ",
        "695": ". And ",
        "696": "jump",
        "697": "looked at ",
        "698": "fast",
        "699": "pi",
        "700": "Lucy ",
        "701": "by ",
        "702": "ful",
        "703": "shin",
        "704": "?\"\n",
        "705": ". The bird ",
        "706": "tter",
        "707": "s. They ",
        "708": "tur",
        "709": "not",
        "710": "take ",
        "711": "they a",
        "712": "imal",
        "713": "way ",
        "714": "che",
        "715": "Yes, ",
        "716": "su",
        "717": "jo",
        "718": "har",
        "719": "together ",
        "720": "An",
        "721": "happy to ",
        "722": "s, ",
        "723": "every",
        "724": "every ",
        "725": "si",
        "726": "this ",
        "727": "other ",
        "728": "its ",
        "729": "more",
        "730": "hank ",
        "731": "scared",
        "732": "fle",
        "733": "get ",
        "734": "they were ",
        "735": "Bob",
        "736": "ep",
        "737": " again",
        "738": "When ",
        "739": ". It was ",
        "740": "Can ",
        "741": "sti",
        "742": "ing and ",
        "743": "you, ",
        "744": "om that ",
        "745": "little boy named ",
        "746": "know ",
        "747": "tree ",
        "748": "old ",
        "749": "for the ",
        "750": "water",
        "751": "pped ",
        "752": "show",
        "753": "ev",
        "754": "could not ",
        "755": " all",
        "756": ". E",
        "757": "str",
        "758": "under",
        "759": "rab",
        "760": "didn't ",
        "761": "things ",
        "762": "cu",
        "763": "dy ",
        "764": "n ",
        "765": "mou",
        "766": "book",
        "767": ", but he ",
        "768": "my",
        "769": ". Th",
        "770": "bea",
        "771": "or ",
        "772": "with a ",
        "773": "ing the ",
        "774": "om that day ",
        "775": "was not ",
        "776": " him",
        "777": "uck",
        "778": "flower",
        "779": "him ",
        "780": "we",
        "781": "ong ",
        "782": "list",
        "783": "spec",
        "784": "ple ",
        "785": "me ",
        "786": "happened",
        "787": "ite ",
        "788": ". You ",
        "789": "pick",
        "790": "Thank ",
        "791": "to play ",
        "792": "each other",
        "793": "ked ",
        "794": "said, \"I ",
        "795": "war",
        "796": "bl",
        "797": "col",
        "798": "near",
        "799": "Tim and ",
        "800": "heard ",
        "801": "es and ",
        "802": "idea",
        "803": ", he ",
        "804": "tu",
        "805": "Sar",
        "806": "exp",
        "807": "ily ",
        "808": "fter",
        "809": " at the ",
        "810": "righ",
        "811": "from the ",
        "812": "park ",
        "813": "never ",
        "814": ". He wanted to ",
        "815": "if ",
        "816": "He ",
        "817": "ts of ",
        "818": "car ",
        "819": "learned that ",
        "820": "eat ",
        "821": "ble ",
        "822": "small",
        "823": "speci",
        "824": "rock",
        "825": "house",
        "826": "lots of ",
        "827": " around ",
        "828": "clim",
        "829": "and",
        "830": "friend ",
        "831": "dan",
        "832": "lled ",
        "833": "hand",
        "834": "ed, \"",
        "835": "hat",
        "836": "Da",
        "837": "don't ",
        "838": "turn",
        "839": "dre",
        "840": "ile ",
        "841": "climb",
        "842": "just ",
        "843": ". We ",
        "844": "peo",
        "845": " as ",
        "846": "squ",
        "847": "in the park",
        "848": "every day",
        "849": ".\n\n\n\n",
        "850": "nice ",
        "851": ". Sue ",
        "852": "et ",
        "853": "dden",
        "854": "fore",
        "855": "expec",
        "856": "er and ",
        "857": "'s mom ",
        "858": "Mia",
        "859": "win",
        "860": "ge ",
        "861": "el ",
        "862": ". Tim",
        "863": "us",
        "864": "laughed and ",
        "865": "ymore",
        "866": ", and the ",
        "867": "You are ",
        "868": "t, ",
        "869": "il ",
        "870": "watch",
        "871": "dad ",
        "872": "rom that day ",
        "873": "She ",
        "874": "Tom and ",
        "875": "s. He ",
        "876": "into the ",
        "877": "hea",
        "878": "then ",
        "879": ".\nThey ",
        "880": ". Max ",
        "881": "loved to play ",
        "882": "long",
        "883": "s. She ",
        "884": "fam",
        "885": "unexpec",
        "886": "up and ",
        "887": "sad and ",
        "888": "to be ",
        "889": "ed it ",
        "890": "te",
        "891": ". They played ",
        "892": "all ",
        "893": "home",
        "894": "went to ",
        "895": "fro",
        "896": "high",
        "897": "ft",
        "898": "give ",
        "899": "share ",
        "900": "hur",
        "901": "!\n",
        "902": "ep ",
        "903": ". It was a ",
        "904": "am ",
        "905": "have a ",
        "906": "Spot ",
        "907": "unexpected ",
        "908": "Jo",
        "909": "far",
        "910": "where ",
        "911": ".\n\nOnce upon a time, in a ",
        "912": ". They all ",
        "913": "uck ",
        "914": "per",
        "915": "surprise",
        "916": "kind ",
        "917": "sel",
        "918": "smiled and said, \"",
        "919": "ink",
        "920": "pretty ",
        "921": ". M",
        "922": "ed a ",
        "923": "Tim. Tim ",
        "924": "took ",
        "925": "plan",
        "926": "from ",
        "927": "even ",
        "928": "box ",
        "929": "tra",
        "930": "sun ",
        "931": "ry, ",
        "932": "made a ",
        "933": ". His ",
        "934": ", they ",
        "935": "Kitt",
        "936": "now",
        "937": " her",
        "938": "cha",
        "939": "could",
        "940": "'m ",
        "941": "lid",
        "942": "color",
        "943": "ice",
        "944": "come ",
        "945": ". The cat ",
        "946": ".\nT",
        "947": "ving ",
        "948": "something unexpected ",
        "949": "he was ",
        "950": "fin",
        "951": "mom and ",
        "952": "unt",
        "953": ", and they ",
        "954": "gard",
        "955": "ook",
        "956": " at ",
        "957": "Sue",
        "958": "s the ",
        "959": "t a ",
        "960": "something unexpected happened",
        "961": ". He was ",
        "962": "love ",
        "963": "mak",
        "964": "wn ",
        "965": ". So, ",
        "966": "dog named ",
        "967": "beau",
        "968": "bra",
        "969": "Thank you, ",
        "970": "pic",
        "971": ", so ",
        "972": ".\nBut ",
        "973": "out the ",
        "974": " always ",
        "975": "pot ",
        "976": "ic ",
        "977": "by",
        "978": "much ",
        "979": "ber",
        "980": "beauti",
        "981": "should ",
        "982": "fish ",
        "983": "good",
        "984": "feel ",
        "985": "noi",
        "986": "rom that day on, ",
        "987": "know",
        "988": "fir",
        "989": "Ja",
        "990": "s a ",
        "991": "gg",
        "992": "sky",
        "993": "slid",
        "994": "toys",
        "995": "better",
        "996": ".\nTim ",
        "997": "mag",
        "998": "still ",
        "999": "had an ",
        "1000": "blo",
        "1001": "I a",
        "1002": "kid",
        "1003": "fish",
        "1004": "nex",
        "1005": "lly ",
        "1006": "ally ",
        "1007": "hugg",
        "1008": "door",
        "1009": "smiled",
        "1010": "talk",
        "1011": "Sara",
        "1012": "t of ",
        "1013": "to a ",
        "1014": "ed a",
        "1015": "na ",
        "1016": "around ",
        "1017": "ground",
        "1018": "It ",
        "1019": "ly, ",
        "1020": "listen",
        "1021": "feel",
        "1022": "in his ",
        "1023": "to his "
    },
    "merges": {
        "55,1": 84,
        "54,1": 85,
        "70,58": 86,
        "1,51": 87,
        "9,1": 88,
        "70,1": 89,
        "75,1": 90,
        "64,85": 91,
        "69,1": 92,
        "70,65": 93,
        "55,68": 94,
        "55,85": 95,
        "86,84": 96,
        "7,1": 97,
        "73,51": 98,
        "59,64": 99,
        "58,84": 100,
        "93,1": 101,
        "87,91": 102,
        "65,71": 103,
        "55,64": 104,
        "88,43": 105,
        "58,51": 106,
        "87,1": 107,
        "65,63": 108,
        "69,51": 109,
        "51,68": 110,
        "1,96": 111,
        "58,55": 112,
        "65,64": 113,
        "59,63": 114,
        "9,0": 115,
        "62,62": 116,
        "57,1": 117,
        "51,64": 118,
        "98,92": 119,
        "65,68": 120,
        "51,75": 121,
        "94,1": 122,
        "59,70": 123,
        "59,54": 124,
        "68,55": 125,
        "66,62": 126,
        "59,92": 127,
        "59,68": 128,
        "95,101": 129,
        "86,55": 130,
        "59,62": 131,
        "51,63": 132,
        "73,59": 133,
        "69,70": 134,
        "68,59": 135,
        "62,65": 136,
        "51,91": 137,
        "51,1": 138,
        "112,90": 139,
        "88,31": 140,
        "88,42": 141,
        "65,1": 142,
        "140,84": 143,
        "64,65": 144,
        "105,139": 145,
        "1,58": 146,
        "51,89": 147,
        "94,84": 148,
        "133,86": 149,
        "71,64": 150,
        "99,117": 151,
        "38,64": 152,
        "53,61": 153,
        "66,66": 154,
        "72,94": 155,
        "105,100": 156,
        "62,59": 157,
        "62,55": 158,
        "116,1": 159,
        "3,1": 160,
        "52,59": 161,
        "141,100": 162,
        "97,3": 163,
        "52,55": 164,
        "71,89": 165,
        "54,121": 166,
        "59,89": 167,
        "75,103": 168,
        "73,1": 169,
        "65,61": 170,
        "108,1": 171,
        "109,124": 172,
        "63,51": 173,
        "99,57": 174,
        "69,55": 175,
        "62,85": 176,
        "52,65": 177,
        "62,84": 178,
        "106,154": 179,
        "54,65": 180,
        "104,54": 181,
        "52,51": 182,
        "65,56": 183,
        "55,54": 184,
        "56,135": 185,
        "71,66": 186,
        "57,58": 187,
        "53,58": 188,
        "114,1": 189,
        "118,1": 190,
        "51,90": 191,
        "69,58": 192,
        "64,55": 193,
        "56,120": 194,
        "98,64": 195,
        "155,90": 196,
        "106,85": 197,
        "98,69": 198,
        "62,1": 199,
        "104,1": 200,
        "53,84": 201,
        "185,181": 202,
        "161,117": 203,
        "172,163": 204,
        "123,70": 205,
        "35,131": 206,
        "130,90": 207,
        "72,84": 208,
        "55,97": 209,
        "68,65": 210,
        "115,0": 211,
        "70,129": 212,
        "126,121": 213,
        "88,32": 214,
        "144,89": 215,
        "152,84": 216,
        "61,84": 217,
        "57,55": 218,
        "198,107": 219,
        "55,69": 220,
        "70,114": 221,
        "51,70": 222,
        "4,92": 223,
        "62,205": 224,
        "86,147": 225,
        "53,110": 226,
        "224,178": 227,
        "58,127": 228,
        "103,176": 229,
        "59,85": 230,
        "216,166": 231,
        "99,111": 232,
        "64,132": 233,
        "69,100": 234,
        "233,95": 235,
        "75,102": 236,
        "73,148": 237,
        "101,96": 238,
        "86,94": 239,
        "3,0": 240,
        "68,51": 241,
        "58,122": 242,
        "69,142": 243,
        "86,148": 244,
        "95,137": 245,
        "57,65": 246,
        "43,100": 247,
        "126,191": 248,
        "56,55": 249,
        "73,58": 250,
        "104,89": 251,
        "52,128": 252,
        "113,107": 253,
        "168,1": 254,
        "109,73": 255,
        "7,102": 256,
        "68,84": 257,
        "112,62": 258,
        "195,212": 259,
        "69,84": 260,
        "52,165": 261,
        "95,96": 262,
        "152,201": 263,
        "75,87": 264,
        "258,66": 265,
        "149,1": 266,
        "2,1": 267,
        "32,1": 268,
        "73,251": 269,
        "136,170": 270,
        "56,59": 271,
        "103,91": 272,
        "146,127": 273,
        "186,253": 274,
        "263,274": 275,
        "275,221": 276,
        "70,51": 277,
        "69,61": 278,
        "62,51": 279,
        "244,219": 280,
        "214,89": 281,
        "53,51": 282,
        "56,150": 283,
        "43,189": 284,
        "69,102": 285,
        "69,108": 286,
        "71,68": 287,
        "52,84": 288,
        "43,114": 289,
        "55,51": 290,
        "206,90": 291,
        "276,209": 292,
        "97,261": 293,
        "231,97": 294,
        "66,65": 295,
        "183,1": 296,
        "70,125": 297,
        "93,218": 298,
        "153,1": 299,
        "61,1": 300,
        "69,89": 301,
        "2,160": 302,
        "66,110": 303,
        "132,84": 304,
        "128,1": 305,
        "55,70": 306,
        "63,1": 307,
        "146,122": 308,
        "7,107": 309,
        "63,90": 310,
        "252,85": 311,
        "69,63": 312,
        "119,196": 313,
        "55,53": 314,
        "53,65": 315,
        "53,304": 316,
        "56,71": 317,
        "73,64": 318,
        "84,137": 319,
        "57,128": 320,
        "211,292": 321,
        "63,108": 322,
        "130,305": 323,
        "88,25": 324,
        "255,107": 325,
        "57,51": 326,
        "63,171": 327,
        "70,94": 328,
        "36,51": 329,
        "89,96": 330,
        "193,169": 331,
        "4,89": 332,
        "136,72": 333,
        "329,74": 334,
        "54,230": 335,
        "113,111": 336,
        "59,53": 337,
        "75,97": 338,
        "53,229": 339,
        "59,69": 340,
        "188,1": 341,
        "9,240": 342,
        "202,69": 343,
        "106,208": 344,
        "71,63": 345,
        "213,95": 346,
        "194,1": 347,
        "298,239": 348,
        "9,160": 349,
        "89,101": 350,
        "197,138": 351,
        "115,3": 352,
        "134,110": 353,
        "56,51": 354,
        "55,92": 355,
        "103,187": 356,
        "71,84": 357,
        "88,24": 358,
        "312,131": 359,
        "105,189": 360,
        "53,190": 361,
        "320,199": 362,
        "179,75": 363,
        "55,74": 364,
        "63,120": 365,
        "69,124": 366,
        "52,71": 367,
        "157,61": 368,
        "56,272": 369,
        "98,75": 370,
        "270,95": 371,
        "43,108": 372,
        "51,62": 373,
        "58,65": 374,
        "335,215": 375,
        "99,1": 376,
        "321,280": 377,
        "109,230": 378,
        "69,93": 379,
        "65,73": 380,
        "286,55": 381,
        "88,3": 382,
        "179,90": 383,
        "56,68": 384,
        "113,1": 385,
        "249,62": 386,
        "177,90": 387,
        "43,171": 388,
        "125,51": 389,
        "64,54": 390,
        "157,217": 391,
        "86,151": 392,
        "86,122": 393,
        "48,103": 394,
        "103,70": 395,
        "106,89": 396,
        "73,229": 397,
        "87,64": 398,
        "66,1": 399,
        "65,85": 400,
        "180,117": 401,
        "73,120": 402,
        "93,75": 403,
        "54,191": 404,
        "69,66": 405,
        "57,68": 406,
        "61,55": 407,
        "149,111": 408,
        "182,116": 409,
        "55,62": 410,
        "173,217": 411,
        "53,147": 412,
        "68,1": 413,
        "42,132": 414,
        "386,89": 415,
        "54,54": 416,
        "113,84": 417,
        "62,61": 418,
        "86,174": 419,
        "183,111": 420,
        "69,226": 421,
        "69,173": 422,
        "69,106": 423,
        "70,70": 424,
        "54,84": 425,
        "23,160": 426,
        "46,58": 427,
        "57,142": 428,
        "65,97": 429,
        "59,187": 430,
        "175,84": 431,
        "63,55": 432,
        "63,71": 433,
        "63,118": 434,
        "72,95": 435,
        "333,129": 436,
        "161,57": 437,
        "104,70": 438,
        "86,356": 439,
        "231,309": 440,
        "353,212": 441,
        "88,294": 442,
        "119,243": 443,
        "303,61": 444,
        "324,165": 445,
        "66,51": 446,
        "70,68": 447,
        "115,247": 448,
        "59,153": 449,
        "99,107": 450,
        "211,0": 451,
        "109,75": 452,
        "71,57": 453,
        "36,59": 454,
        "334,1": 455,
        "173,425": 456,
        "70,135": 457,
        "71,187": 458,
        "53,108": 459,
        "103,89": 460,
        "110,64": 461,
        "368,129": 462,
        "97,96": 463,
        "130,63": 464,
        "93,65": 465,
        "227,362": 466,
        "381,392": 467,
        "195,350": 468,
        "87,257": 469,
        "43,139": 470,
        "71,53": 471,
        "180,318": 472,
        "66,71": 473,
        "149,273": 474,
        "271,91": 475,
        "55,116": 476,
        "177,74": 477,
        "57,125": 478,
        "53,222": 479,
        "167,119": 480,
        "65,66": 481,
        "202,92": 482,
        "158,461": 483,
        "115,294": 484,
        "109,54": 485,
        "265,1": 486,
        "62,90": 487,
        "65,52": 488,
        "61,144": 489,
        "93,90": 490,
        "56,65": 491,
        "283,1": 492,
        "69,150": 493,
        "66,165": 494,
        "109,169": 495,
        "67,71": 496,
        "326,99": 497,
        "56,1": 498,
        "112,264": 499,
        "317,199": 500,
        "71,260": 501,
        "369,138": 502,
        "115,24": 503,
        "93,170": 504,
        "246,400": 505,
        "66,125": 506,
        "133,159": 507,
        "55,155": 508,
        "113,57": 509,
        "72,122": 510,
        "35,471": 511,
        "157,435": 512,
        "98,418": 513,
        "88,0": 514,
        "136,73": 515,
        "53,55": 516,
        "70,95": 517,
        "58,94": 518,
        "387,235": 519,
        "65,239": 520,
        "64,332": 521,
        "102,96": 522,
        "286,84": 523,
        "252,54": 524,
        "66,55": 525,
        "7,160": 526,
        "297,55": 527,
        "70,92": 528,
        "68,95": 529,
        "182,299": 530,
        "62,54": 531,
        "51,116": 532,
        "105,499": 533,
        "104,97": 534,
        "86,1": 535,
        "58,108": 536,
        "65,54": 537,
        "36,108": 538,
        "66,68": 539,
        "179,236": 540,
        "279,458": 541,
        "57,59": 542,
        "68,118": 543,
        "54,51": 544,
        "206,75": 545,
        "250,200": 546,
        "54,314": 547,
        "211,440": 548,
        "168,413": 549,
        "130,307": 550,
        "213,151": 551,
        "109,85": 552,
        "73,84": 553,
        "394,1": 554,
        "110,1": 555,
        "70,59": 556,
        "2,240": 557,
        "25,200": 558,
        "106,64": 559,
        "42,71": 560,
        "214,1": 561,
        "452,69": 562,
        "58,114": 563,
        "434,90": 564,
        "73,396": 565,
        "59,116": 566,
        "422,159": 567,
        "69,73": 568,
        "54,94": 569,
        "182,159": 570,
        "64,51": 571,
        "93,142": 572,
        "53,136": 573,
        "547,124": 574,
        "98,70": 575,
        "145,237": 576,
        "51,278": 577,
        "59,201": 578,
        "69,69": 579,
        "42,295": 580,
        "248,266": 581,
        "87,159": 582,
        "64,90": 583,
        "220,97": 584,
        "42,357": 585,
        "359,245": 586,
        "95,242": 587,
        "70,223": 588,
        "182,153": 589,
        "250,142": 590,
        "51,199": 591,
        "53,123": 592,
        "269,238": 593,
        "180,57": 594,
        "345,66": 595,
        "65,169": 596,
        "107,203": 597,
        "282,501": 598,
        "103,390": 599,
        "63,65": 600,
        "54,59": 601,
        "164,316": 602,
        "46,84": 603,
        "113,55": 604,
        "439,89": 605,
        "113,332": 606,
        "87,68": 607,
        "364,592": 608,
        "164,598": 609,
        "58,103": 610,
        "56,56": 611,
        "95,225": 612,
        "68,90": 613,
        "68,75": 614,
        "466,235": 615,
        "53,62": 616,
        "246,89": 617,
        "370,92": 618,
        "395,366": 619,
        "149,308": 620,
        "52,68": 621,
        "325,203": 622,
        "69,287": 623,
        "63,190": 624,
        "54,142": 625,
        "66,135": 626,
        "68,150": 627,
        "68,190": 628,
        "25,165": 629,
        "95,228": 630,
        "55,91": 631,
        "574,129": 632,
        "102,204": 633,
        "61,331": 634,
        "52,158": 635,
        "69,120": 636,
        "384,108": 637,
        "112,110": 638,
        "192,1": 639,
        "164,301": 640,
        "457,129": 641,
        "84,96": 642,
        "87,62": 643,
        "437,97": 644,
        "35,306": 645,
        "62,71": 646,
        "53,103": 647,
        "158,51": 648,
        "177,535": 649,
        "103,85": 650,
        "210,108": 651,
        "206,236": 652,
        "113,97": 653,
        "110,54": 654,
        "365,84": 655,
        "226,55": 656,
        "454,138": 657,
        "87,278": 658,
        "53,125": 659,
        "56,515": 660,
        "414,1": 661,
        "290,341": 662,
        "623,626": 663,
        "166,97": 664,
        "60,71": 665,
        "99,366": 666,
        "86,118": 667,
        "70,102": 668,
        "93,176": 669,
        "25,104": 670,
        "87,52": 671,
        "194,107": 672,
        "326,208": 673,
        "645,223": 674,
        "54,55": 675,
        "481,104": 676,
        "105,171": 677,
        "59,91": 678,
        "53,118": 679,
        "126,51": 680,
        "88,29": 681,
        "255,111": 682,
        "87,370": 683,
        "53,158": 684,
        "84,101": 685,
        "58,453": 686,
        "506,424": 687,
        "179,104": 688,
        "69,65": 689,
        "62,75": 690,
        "54,124": 691,
        "186,1": 692,
        "72,55": 693,
        "88,291": 694,
        "358,91": 695,
        "60,595": 696,
        "371,147": 697,
        "354,134": 698,
        "66,59": 699,
        "511,90": 700,
        "52,90": 701,
        "317,62": 702,
        "192,99": 703,
        "23,240": 704,
        "156,311": 705,
        "70,328": 706,
        "69,145": 707,
        "70,287": 708,
        "144,70": 709,
        "277,217": 710,
        "130,264": 711,
        "114,373": 712,
        "98,90": 713,
        "53,112": 714,
        "48,584": 715,
        "69,71": 716,
        "60,65": 717,
        "106,68": 718,
        "298,393": 719,
        "24,64": 720,
        "383,101": 721,
        "69,97": 722,
        "508,75": 723,
        "55,196": 724,
        "69,59": 725,
        "86,127": 726,
        "65,393": 727,
        "123,92": 728,
        "365,55": 729,
        "559,300": 730,
        "421,184": 731,
        "56,158": 732,
        "218,89": 733,
        "207,237": 734,
        "25,488": 735,
        "55,66": 736,
        "87,497": 737,
        "427,200": 738,
        "281,119": 739,
        "26,190": 740,
        "134,59": 741,
        "174,102": 742,
        "168,97": 743,
        "171,225": 744,
        "227,519": 745,
        "489,169": 746,
        "297,84": 747,
        "65,176": 748,
        "194,111": 749,
        "98,328": 750,
        "154,95": 751,
        "192,380": 752,
        "55,72": 753,
        "339,215": 754,
        "87,116": 755,
        "88,28": 756,
        "134,68": 757,
        "150,569": 758,
        "241,52": 759,
        "691,521": 760,
        "419,92": 761,
        "53,71": 762,
        "54,90": 763,
        "64,1": 764,
        "63,103": 765,
        "177,170": 766,
        "293,100": 767,
        "63,75": 768,
        "105,58": 769,
        "164,51": 770,
        "120,1": 771,
        "149,107": 772,
        "174,111": 773,
        "744,404": 774,
        "119,215": 775,
        "146,114": 776,
        "71,153": 777,
        "660,94": 778,
        "58,189": 779,
        "73,55": 780,
        "113,117": 781,
        "157,134": 782,
        "405,314": 783,
        "126,84": 784,
        "63,84": 785,
        "688,184": 786,
        "123,84": 787,
        "88,554": 788,
        "66,449": 789,
        "43,730": 790,
        "101,248": 791,
        "662,520": 792,
        "61,95": 793,
        "204,268": 794,
        "98,68": 795,
        "52,62": 796,
        "315,62": 797,
        "193,110": 798,
        "289,102": 799,
        "638,85": 800,
        "220,102": 801,
        "124,290": 802,
        "97,100": 803,
        "70,71": 804,
        "42,110": 805,
        "364,66": 806,
        "131,90": 807,
        "56,328": 808,
        "87,330": 809,
        "135,187": 810,
        "637,111": 811,
        "303,300": 812,
        "193,510": 813,
        "143,259": 814,
        "59,498": 815,
        "31,84": 816,
        "528,296": 817,
        "226,1": 818,
        "483,612": 819,
        "55,147": 820,
        "52,178": 821,
        "422,116": 822,
        "783,59": 823,
        "210,153": 824,
        "610,175": 825,
        "136,817": 826,
        "607,272": 827,
        "616,114": 828,
        "118,54": 829,
        "185,631": 830,
        "54,118": 831,
        "116,95": 832,
        "106,390": 833,
        "184,163": 834,
        "106,70": 835,
        "27,51": 836,
        "54,606": 837,
        "708,64": 838,
        "54,125": 839,
        "131,84": 840,
        "828,52": 841,
        "665,301": 842,
        "88,603": 843,
        "525,65": 844,
        "87,92": 845,
        "69,496": 846,
        "232,444": 847,
        "724,166": 848,
        "451,0": 849,
        "64,578": 850,
        "141,357": 851,
        "55,89": 852,
        "416,104": 853,
        "194,55": 854,
        "806,314": 855,
        "94,102": 856,
        "223,327": 857,
        "454,51": 858,
        "73,99": 859,
        "57,84": 860,
        "55,199": 861,
        "105,114": 862,
        "71,69": 863,
        "541,245": 864,
        "75,729": 865,
        "256,96": 866,
        "394,469": 867,
        "70,97": 868,
        "131,1": 869,
        "575,188": 870,
        "544,85": 871,
        "68,774": 872,
        "42,100": 873,
        "372,102": 874,
        "69,143": 875,
        "99,238": 876,
        "112,51": 877,
        "86,200": 878,
        "115,470": 879,
        "88,455": 880,
        "436,248": 881,
        "62,509": 882,
        "69,162": 883,
        "56,132": 884,
        "150,855": 885,
        "186,102": 886,
        "552,137": 887,
        "101,288": 888,
        "95,167": 889,
        "70,55": 890,
        "145,346": 891,
        "51,159": 892,
        "536,55": 893,
        "269,101": 894,
        "56,210": 895,
        "58,430": 896,
        "56,70": 897,
        "542,208": 898,
        "423,257": 899,
        "58,287": 900,
        "2,0": 901,
        "55,399": 902,
        "281,219": 903,
        "132,1": 904,
        "344,138": 905,
        "580,89": 906,
        "885,517": 907,
        "33,65": 908,
        "56,110": 909,
        "250,148": 910,
        "321,450": 911,
        "533,159": 912,
        "71,299": 913,
        "66,94": 914,
        "663,175": 915,
        "61,678": 916,
        "175,62": 917,
        "586,204": 918,
        "99,61": 919,
        "687,90": 920,
        "88,36": 921,
        "95,138": 922,
        "289,360": 923,
        "504,1": 924,
        "126,118": 925,
        "384,171": 926,
        "753,200": 927,
        "477,1": 928,
        "70,241": 929,
        "493,1": 930,
        "68,338": 931,
        "456,138": 932,
        "140,127": 933,
        "97,207": 934,
        "34,205": 935,
        "144,73": 936,
        "146,94": 937,
        "53,106": 938,
        "647,531": 939,
        "4,307": 940,
        "62,124": 941,
        "797,120": 942,
        "337,55": 943,
        "459,84": 944,
        "156,412": 945,
        "115,43": 946,
        "72,151": 947,
        "467,907": 948,
        "100,119": 949,
        "56,99": 950,
        "322,102": 951,
        "150,70": 952,
        "256,207": 953,
        "57,654": 954,
        "65,170": 955,
        "87,89": 956,
        "560,55": 957,
        "92,96": 958,
        "70,107": 959,
        "948,786": 960,
        "143,119": 961,
        "136,208": 962,
        "173,61": 963,
        "318,1": 964,
        "141,429": 965,
        "401,235": 966,
        "770,71": 967,
        "52,241": 968,
        "790,743": 969,
        "66,337": 970,
        "97,243": 971,
        "115,629": 972,
        "103,330": 973,
        "643,618": 974,
        "295,89": 975,
        "337,1": 976,
        "52,75": 977,
        "433,341": 978,
        "52,94": 979,
        "967,556": 980,
        "192,229": 981,
        "271,639": 982,
        "246,537": 983,
        "249,861": 984,
        "144,59": 985,
        "872,653": 986,
        "489,73": 987,
        "56,128": 988,
        "33,51": 989,
        "69,107": 990,
        "57,57": 991,
        "278,75": 992,
        "69,941": 993,
        "403,69": 994,
        "164,706": 995,
        "115,284": 996,
        "173,57": 997,
        "741,159": 998,
        "197,190": 999,
        "52,136": 1000,
        "32,87": 1001,
        "61,124": 1002,
        "271,192": 1003,
        "193,74": 1004,
        "116,90": 1005,
        "532,90": 1006,
        "686,57": 1007,
        "180,120": 1008,
        "359,184": 1009,
        "277,418": 1010,
        "805,51": 1011,
        "89,296": 1012,
        "93,107": 1013,
        "95,51": 1014,
        "64,138": 1015,
        "110,272": 1016,
        "406,599": 1017,
        "32,89": 1018,
        "62,338": 1019,
        "782,104": 1020,
        "249,410": 1021,
        "99,273": 1022,
        "101,228": 1023
    }
}